00000100111111011111111000000000000000000000010011111101000000010000010000000000111111010000000000000011111111101111110111111110000000100000001011111111000000000000000000000100111111100000000111111110111111001111110011111100111111101111110100000010111111110000000000000100000000110000000011111011111111001111000100001110000100011111111011110001111010001110001111110001111110101111010111101110000000000000000111111111000000000000001000000010000000100000001000000001111111110000001111111110000000001111000111110010111100011101011011011000110010101101111011010000101101011010110010111010101100111011000111001110110000111101001011100101111100101111011111111100111111000000000000000000000000001111110100000001000000011111000011011111110101101111010011100110110101000000001111111100111101010000111111111101111101101111000111100100110101101101010111001000111000101111001111101011111011110000000011111111111111001111110100000010111111111111100011100000110100101110011111111111000000011111111100000101111100001111101111110110000011111111101100001010111100001111011011110001111101111111110011110000110010101110110111101000111111100000001000000011000000100000000111101001110000111110110111110011000010011111110000001101000001010000000000001011000100100001010000001111000101100001000100000000000001010000010011111100111000101110000011000010110100111111111111111110000000000000000011101000110110001111000111110010000000001111100111100001000000011111111000001001000101000001000100001110000100110001111100011011000101010000110000010011000101101111010011000000100111101100110111101000000000111111011011110100111000101101100011110111111111110000010011100101111111010000001000010011000001000001001100001011000100100001010000100010000110110001100100001110000010010001000100010100111010001010000111001111000000100000000011111010000000001110001111001101111111101111001011101010111110010000110000000101000001000000111000000101000100100010000100110011000111010010000000010101000100000000110000010000001000110000001110101110101111111110011100000001111101011111110000000000111001011111000111110110111111001111001011111101000001101111111011111101000111010000101011110110000101000001111000100110000111000000111100000010000010110001111000001111101010101100100111111100000000001111100100000110110111011111111000000000111111111111011011111001111111011111100000000100000010000000100000000110111011001111011100011001001001100000100000011010000010010001111000100111000110001011000111001001111101101111110011111110111110101111011111101000111100111111111000001011111111011110111111110100000001001111010000000000110011001011100011000011111100000000001000000001000010010001110100010100000101000000010011010001110100101111010111111101111110111111101111110101111001111111110000001110000000001111101111111001000001001111111100000001111110101100010110100110101100011110101111111100111111010000000100001100001000000001010100100010111111001110000011101110000000001111110100000000000000111110111000000010000101000000111000001010000010010001110000001101111111001100111010101111100111001100000011101010111011100000001000000001000010110001000100100101000110010000111111100111111110110000001011111101111010011110000011110010000100000000110100100001000100000001001100001011000010110000010111011010101010001010110010101111111011001111000011110010111110010000111100010011000101110011000111110011111000110000000011111101111110011110101111100001000011000001101111111100001000100001101000011111000111010000111100000000110001101001110110100110110010101110011111111001111101010000111100000101000100100010011100100010111100111110100000000000000000101111110111101011110101100000000000010100000010100001011000010110000100110001100100010101110110011011001110100100101111111101110011111011000001101111110100001101000100110000110000010100111110001101011111011100111011001111111111111010111000001110000111110011000011010001001100001010000010010001001100011111000010101110000010101010101100101101110011110100000000001111111100001001000001110000000000001100000010000000010111110000111000100000000000000000111111001111001011010010111111001111111000001001000010100001100000011001001001011111111111011000101111101011111011101001000000110000000000000000000000001111010000000101000011010000100011110100110110001110011111100100111111011111111011100001111001001110101100000101000010010000100000010001000011000010010000010101000011011111001011110011111100011111110000000001000000001111100000001100000011000000110111110110111110011110101111011100111100101111111100001010111011001101010100000001000011000000111011111110000011110001000100101010001001110010000000010101000001110000000011111110111110001111101111101101111011110000011100000010111101001101110011011100111110010000000000000010111111011110011011100100111101000000110000000110000000110000000100001110000101110010011100011010000100100000110100010010000001001110101011111001111000011111000111111100111100011110111011010111111000110000000011111111000000110000000111101111111001111100101111110011000010101111111000001110000101100001101100010110000100110010100000010001000010000000111111111110111011010000010011111000111101110000001111111100110100111110010100001000111111010000001000000001111100001110011111001010111001001111011011111010000000000000110000101001001000100010011100011111001000110001000000001101000010111110111011010111110100011110111111011110111010011110011011100101000000110000000011111110000000001111110111101010111101110000000011110010111000001110011100000000000101100000001000011000000011000000010011111100111100001111010011001101110000011011111111000000110010101101011111101101111110000000000011111111000000011111110100000011111111011111101011100101110000001100001110111111101001111010000110111110101011101011101010011011101001101011000010101001101010001011110010111111110001111101101111100110111001010000001000000100000000000000001011111111000000111111111111111110111010001101100011010010110101001011110110111101101111111011011111000101101111011011101110111111110010101101100111100101111001011110110011100111111111010000000100000000111111101111110111111100111111100000001000000100000001001111011111111010111111011111111011110001111110011110111111100111111010101101111111100110111100111111011011110111111111101111011111110110111010100000000111111101000000000000000011111110
11111111000000010000000100000000111111101111110100000000000000111111110000000100000000110000001000000010111111011111111100000100111111110000001000000010000001000000001000000000111111110000000111111110000000000000000000000000000000001111111011111111111111010000000000000011111111000000001011101100111111101111000111110101111101010000000000001101000101001110000100000000111111111111101011111111000000111111110100000011000000001111110100000000000000011111111100000000000000000000001011111101111111011111000011110010111000001101111011011000111001111111011100001110000011010010000000001001111100111101000111110010110110001110111111101101111110011111110011111101000000010000000111111111000000110000000011111110000000001111100111111101111010101101010011010010110101001101010011011111111100111110011011111001111111101101011011010010110011111100110011100010110111001101011011011101111111110000001000000001000000100000000100001111000000011110011111100100111001101100011111011001110010111110100111111100111100000001100000000101000000011111011111110111111110100000010100001101111101111110110011111011110011011110011111110011000000110000000000000001111111010000001000001110111010111101011111011000110000001100011011101000111001011111110011111110111111011111111011110101110111101111000100000010111111110001001000010000000000111111011011000011111001000000001011111101000000011111010000001101111001101101010010111101101010101100011011000100111001011111101111110010111011101111000111100101111000101110000111111001111100110000010100001011000010100000000011100010101101101110011011101111000000001111011111101000111100001110011011010011101100101011010111000100110010001111100011101001111111111111101011110010110111111110000011100100111101000000010100000101000000111111101111110100101001111010100011100101111111010000000000000010111011011111111011100100110000111100101111001111101110101101001011100001111100001111111000000101000011100000110011110101000000101111011111111101111010001111000011100100110001001001100110111110111011000000001111111100000000001111110011111011110101111101001011100000110110101101001011000110110111110000000111111000000010010010000100110111000100010000010011110110111001011101111111011101110010011010111110111100101101001101110011101111000000000000100111111011111010111101010110111000110100001101000111111000110100001110011111111010111101100001011001000011010001110010010100001011111110101110000111011111110101011011100110111001101011111100101011011110111111001111110011111111111111011110110111100100110000111100011011100110111100001110011111101010111000111110100100011110010010000100010000100011111101000000000011110101110110001110011110111111110110101100001111101110111011001111111000000000111111111111110000010000111111001101000111111100111110011110110111111110110111011101001011101000000110110101100000111101000110001111011000000000110100011101000111110011110010101110010111001111110101011101100111111110000000100000000000000000000001000001000011100001000001001111010100001011111001111100000110111001111100000001011101000110001110100000110000000000111011111110010011001100000000001100010111001000110000011101010011101010111111010000000100000000000000100000110111111000111001111101110111111001111111001110011010111111110010001111111000100100010001100011010000010101111000011101100111001100110000001101100111110000111011101111101111100010111010010000001100000100111111110000000111111011111101001110011111001011111101011111101111011001110010011110110100001101001101010100100100011001000000011100001111000001100111011010100111100110111000111100100011011000111010101111010100000001000000010000000011111011111111001111001111011111110011111101110111010111111100111110001011110110000000010010110000111101111111101110011010110010101100011001100111010011111011101011010110111000110010011101110011111001111111011111111000000001111111011111001111011010101110001010100011000011111001011111001111110110111101100000100000101010001101011111110111010011101111011100011111011010110110111110111011111001111100001101001010110011111110110000000000000100000000001111110111110001110011001011011110011111101111111111011111110100111010001111101000001101001000000010001011101101110100101110010011111011111101010001010000001001111001001110101111010010110011110000100000010011000000100000001111110101111000111011100010011100110111011110011111101000000001001111101000000110000001100001010000001110111110010000100011111111000100010001001000001100000000001101110111011000000001001110100000000000000000011111110111111000111010011101110011011001110010101111001100000000000001000000100000001010000011110000100100000010000100010000001100001101000111010010010000001110000000001111111111011100111110011111101111110010000011011111111000000010111101111110110011111110000110010000111100001000000010110001000000001010000101011111111011110000111101110000001100001111000100000000110100010101000001110000011100000100110010101100111011110111111110000000001000000000111111101111110011100110111111110000100001010000001100100000110000000111000010100000000011101111110111001101101100001100000001010001010000101001000111110000011111110111111011011101000111110000111001101111001100001100000000000000000111111111000000001110001011111110001000000010100000010011000000011111111111101010111101101111101011101110111011000000110100010111001100010000101011101111110110111101101111101111110100111111111000001000000011010000000100000000111111010000001111100001110111101110111111111101111001101110010111110011111000101101100111100100110101011110010011101011110001100000000100000000000000101101011011101001111101101111001011111101000001001111111100000010000000101111110100000001111101001101011010111110101111111001110111010010110010001001110010010111101100101010101110111101100101111001000010100011101101111100101111100011111100001111010011101011111111011111111100000010000000100000000100000100000000111111110011110010111010111110010111011101110010111100110111001000110001011011111110111001101111111101000011010101110011001110010011101010111101011111111111111100000000111111111000000000000000000000001000000100000001000000000000000000000001001111111011111100111111111111111000000000111100111110110111101010111011001111001011111011111110011111011111110011000001000000010000000000000000100000010000000000000000011111110111111101
11111110000000000000001111111101000000110000000011111110000000010000000000000000111111110000000000000000111111000000101011111101000000000000001000000010111111010000000000000010000001000000001100000001000000001111110000000100000000001111111011111100111111010000010011111110111101111110110100001110111010111110111111011111110010001011110000000000000001010010110011111010110010001101110111100101111011011110110011110000000000000000000000000001111111011111111100000010111111011111111011101100000000001111111111110001111100100001011111111011000110000000101000010010000011010000111000011110000000111111100011011111110111111111010111001110111110110000100100010000111111101111111011111110111111101111100111111101111111111111110000001010000100000000100000100111001100000010101100101001001010110010000000001100000100010000100000000010111010001110010111011100111000011100100011110000000010011111110111111110111111110000000011110000111111011101110100000010001001000000110000010011001010000010101100011010001010110001100000011110000110010000101100001111000001011111001011110100110100101100110110101110110001111111111011111000000000101111111011111101000000001111101100001110111111100000101100010010000100100000111000010011001000000001111000011000000101110000111100011101000101110001011011111010000000101111100011111111110110011101101011100110111011101111111000000011111111011110101111111101000010000001010000010110000100110000000000011010000010100000011100001101000101100001110000001101000101000000011100001101111111111111110011110111111010111100100011001000101011111101100111101101000000001110111100010100000000010010001000001010000111011111110000010011000001110001010000010101000001010001000000001001111111100001001011111001000000011111111100000010000000010001000111001000110010001010010111100010111101011111110011101011000001010000100100100000000010110000101100001110000011000001001000100011000100110000110100001010000111010001010100000100000001101111110100010010000001111111010100000000111100011001001010101111110100011111100100000011111001001110100000000100000111010001110100001100000001010000001100001010000001100000010100001100000010010001010000010011000110010001001100010000000010000000100111110111111100101111010001111000101011011101000111110100111111011111010111110111111111001111001000010011000100001110011111101101111011011110111011011111110111011101000011100100111011001111110100001000111111010000001011111010111101111111011111101010110111011110011011010010111101101111011011101110111100011110001111100101111100101101101011001001110000001011101110100101101110011010111110101010110000001101001111101001111010111111101100001001111110101111010100000010111100001110100111110000110010011110111011110101111100001111010011100011110011011011000110010001100000001001111110101100110000101011101111000000101111101100010011010101111000101110001111101101000000100000001011110110111100101110101100001010001001010001100011110100000000011111100011111001110101111011000010000010100001001000101111010000110111011110010111101111111100101110111011110110111000001110110111101001111010011111110011110111111100001111100011110110000010110011010000100010000000001111111100000010111101001101100110111101101101101100110011110011111111110000010011111010000001100000010100010010000010001111011011110010111010111111001011111100000000011110100011101000111101000000011100110010001100110000010000000100111100011110010100000110111110101111100000010010000001000000011100000010000010100000101000001000000110000000010000000000000001011111100111101011111111001101111111101000111000101110010000101010010000000011110000010011111111011111110111101010001011100000111100100001000111010000011111111000000010110001001000010101001001000010001000010000000000100000000000001100111111001111010111110110000110010001100100010010001101110110001001000110001001000000001111111000000001110010010000011010000110000001100100001000000010110000011100010111000111000010000100011101111111110000100111111110000001010000011111111100000001010000010000010011000011000010011101101000010001011111111011111111111110001110101100000111000110110001111000010110000110100000001100001010000101000001000100100111001000000001001000000101000101000001100100001000000011010000100000000011000100000010001001001111011000100001111100011011000000111111010011100001111011010001101000000101000010100010001000010101000101010001010000011010000101010010010100010110000100100000100100010110000001010000010000010001000011110010100000010001000101000100011100110001000100011111111111101011111011001111110100010100000100100000110100100110000110100001111000100001000111010010000000001101000011000000101100000110000000110001001000001111000101010001100000011010000101100010100000100110000110110000000011111101000001110000110000011010000010110000011100001111000001110000101000011010000111100001110100010100000001100000010000000000000001010001101000011101001001100000111100011011000101110011000000011010001010100000011000000000111111110000001011111111000110000001001000000100000111000001010000011101000111110001000100010100000001101111110111111011000000000000000100000110000111100001100100011101000101000001101000000010000111010000110100001000000000011111111111111110111001001111010011110111000000001111110100000110000100010000111100001010000100000000100100000110111101111111100111111100000000100001010000011101000111000001100100100011000110110001101100001110111100001111110000000000000000011111000011010010110110001100100111010110110101111101110111101110111000001110001011111100000000000000100011111010111101100000110100010001111110100000000000001011111111001110101100100010001001110000000000000000111111000000001100000010111011011101001010110101101111001011101010100010100101001010101110110001101110101101011011101011111101101111010011110101110001111100001111011010110101101101100111100000111000111111110100000011000000010000001100000000111111000000000011111001111001001101100111000101110011001100111010111111110011101100000110110001101011011011010010110111110100011011001111001110110101111101100011110011111110001111110000000010000000111111111000000000000000001111111011111100111111111111110111111010111111010000000111101110111000001101011111011111111000101110111011110001111010011110101111110100111111111110100000000000111100100000010000000011111111110000000100000011
00000010111111110000001111111101000000001111111011111110111111000000001100000011000000100000010000000010111111111111111100000000000000111111111100000011111111101111110111111110111111100000000100000000000000000000000111111100111111110000000000000010111111011111110011111100000000000000000100000000000000111111000111110010111011111111001011100111111001111110111111111110111111111111101011101100111111011111110100000100111111010000000011111101000000000000010011111110000000000000000011111101000000001110111111100110110110101101001011001010111101101111010011110111111110101101010111100000111001011110101011000011110111001101110111011100111111011111011100000000000000010000001111111110000000001111111100000001000000110001100100001001000100000001111011111100000110000010101000110110000110000010101100011110000011110001010000011001000101110001101111011101101110011101111011100001111101110000000000000001111111000000001011101101111111110001000100101011001000110001101000100010000100110010100000100011001001000001111000010110000101010001010100000101000100100000010011111000110110001110010110011001110001111110111111111100000001000000000011111111000000100001011100100011001100100010100000100001000010000001011100010000000100110001001100010001000011010001100100010001000001010000000100000011111101101110000111100111110001111010100111010010111100010000001100000010000000110000101000100011001000010001000100100010000010100001010000011001000101010001001000001101000111010001010000010100000101000000100000001111000000001111110111110000111001111110001010110001101111011110111000000000000000110001100111011110000101110010001000100000000110000000110000001111000010010000101000000000000110000000111100100001000101010000100000010001000000110001000011111110000000111111001111001010100011001011101011101101111111011111010111111101111110010001010100101010000111000001010100001010000000110000100100001000000001100000000100001110000110010001001100011001000111010001001000010000000101000000100100000110110000000110110010100011111100110000001111111001000000000000010000010100001010100000111100000011000100001111110100000001111001001110000111011111111110000001111000100111000011000001000100010011000110000001110000010000000110111110000101100111101101011110010100000010111101011101100011100010001100000000111000000100000000101111101111010101110000011100001111000011110010101111111000010000000101010010001000010100000100010001001000010111000100000000100111011111100110011111001011110001000000011111011111011011111111110011000000001011111010001100111111000011101111111100100111011001111010011111000000000010000100010000100100000011000100110000110100001111000001011110010111100110110001111010110100000001111001010000010011110110111001111101000100001001110111111101010010111111110101111100101111101100111110101111011000000110000001100001001000001100000010110000100100000111000000001110100111001100101101001011011011001101000011011111100000000000000000001111000111011101111101011110111111010111110100101101100011100011111101111111000011110101000000000001100000010110000001000000110000001000000000111111101111010001110100011011111111001101110100001101111011110000000000000000000111111110110111111111111011010010110010011100111111001001111101101111011011110010111011110000110100001010000100100000100111110101000000000000100011111101111010111111101111011000111100011101010011011111111001001111111000000000000010110000111111111011000000111110010011010101110011001101000011101001111100001111101000001110000011010000100100000010111110101111101111110110000000110000110100000111000110010010010000000010110010101110101111110001000000011111111000110000000011000001000000000001110111111101100111001010111010101110011011110110000000000001000111111000111100011111001000000001000011010001110000010011000011100001101100101101001000001100011111100000111110100000001100001101000011000011000000101110000010011111001111101010110111011011111010111010110011101110001111011100110111111111000011111110000011110000111000011010000001010001111000010111001001111101100110111000110111001111110100000100000011100001001001000011000111110001000000010010111010001110010111001101110001001100001111000110110100011101110011111101000101010001110000010010000111100000110100011010001000100000110111011100110010001101011111101010111111110000110011111001010000110001111100101001000100000000001000000000111101111110001111011000111000101110011111111111000010010001000000100010000111100001000100000110000111100000010000001110111010001010100011100010111101111111111000000011111111000010110100100011001000000001110100010110000100110001000100000101111101011110110111111010000001000000110100001000000101010001001100010100000110110000001011110101111101001110110111000000111000001111111000000011000010000000101100100011000110100000111100010001000110110001000011111111000000100000000011110011000001110000000000001000000100000000110000010110000101111111111011111111111101001100111011010011110010101110011011111101000000000000000000010101001011110001001100001000000010110000100000000000000100000000011000001111000000100000001011111110000011010000101100010000000011100001011000000000111101011111100011010011110100111110101111111011000001000000000011111111001001000011010000110000000101010010000100011011000011110001000100010010000101000000011000000101000010100000011111111111000001000001100000001001000000001101111111001011110000011110110111101100111011111111111100000100000000100001100100101110001110110010001100101000001101100001101000010101000110100010000100010010000111110001100000001001000101000000101011110101111101101101110111101011110111011101011111110000111011101111111100000011000001000000010011111101111110010000010000011011001011000010010001000111001111000011111000110011001111010010110000101000000001010000111111111111111110000000100111111000111010100000010011100111000001000000000000000100111111011111111000000000111111110000010011100011110101101111011111111001111010011111011011101111110111001110100011111000111001101110111000000011111111110000001100001000000001001111101111101101111110010000001000000011111111100000001100000001111111101111110100000011111111110000000011110110111110001111000011100111110110001101010111010011110010001100101111000011110011111101011111011000111010001110110111111001000000010000000100000011000000100000001100000000
00000001000000011111111000000001000000100000000011111100000000000000000011111110111111011111110000000001111011011111101100000001000000000000000000000001000000100000000000000010000000011111110111111101000000101111111011111100111111001111110111111101000000001111111000000001111011011110000011100001110110001110000011001101101111101100011011110001110101101100011011010101110110001110001111100110110111101110001111110000000000000000010011111110000000000000001100000010000000011111110111101100111111001101110111001110110010111100000010100111100111111001110010110011101110011100011010111111110000001010001111001101110110101101101111100000110111101110011111111010000000000000010000000000111111111111010111111101000000111110110111011001101111101011000110011011101010011001101110010010011111001011100110110010101101101100000111000100111110101110101100000101111101010000000011000110111010111111111000000100111111000000010000000011000000010000110000000110110111101110110111100110110101101100000111010110110100001101001110111010110100011111010011100101110111110000000000011110001011000011010000011000001001001111111011111100111111110000000100000100000001001110111111111011000100011111001100000000111110100000011011101011111101001110101011011110111101111111000100001001000010000000100000010100000000011111111000001111001011100000101011101110111001110000001100000000111111101110101111101011000000100001111000000101000000000000000000000000111101011110011111101000110100011101010111010100110100011110101011011011111101111111010011111011000010010010011000000110111010110000001111100010000000110000000111110101111010000000001000010101000000100000011111111011111100001111010011101001110100011110001011001110110100011101011111101010111011011111100011111001111111110001010000001001111111000000000000000111111100010000000011101000000000011111010000000000000110110000001011111101111110110000100011101000111101101110010111100011110010101101101011011000111101000000000111111001111111001111101111110101111101011111010000000011111000001110010111101110111001011111100111011011111010001111110111110000111111101111011011111001111101111111100111111011111100001100000011010011111101010000000000000000000000010000010000000110111101011111010011010000110010011110100111111000111100111110110011101001110100101110001111101001111001001111100000000100000010010000001100000100000010001110100110101111111011010000000000001100111110100000011111110100111110011110111110101100101010111100111011001011111011001111101111100000110100001110000111100001111110100000011000000110000010100001110000011000000110010010010111010000101100010000000000100000000100011111111011111100111100101110110011101000110000101011101011000110111000001111110100000000111001001101010011011001111000001111001100001110001000110010010100100010001100110011100100111011111101101101100000001000001011100001100100000101000001111111111000001010111111001101101111010000111011001101001000000000111111111111011011001101110100011111000100001100001000100010101100100001001010110011100100111110001000011111010111111001000110000010001100101010000110110001000100100010000110010000001011100100110101111111000000000001111011010000000111110011111010111110011100100100001010000010101100100000001001010010101100100001001010110001110111111010000001100001010000110010001101110001110100011111000100010000100000000101110111101110010011100110110110101111110000000000111110011111111000000111000100110000100000010101000110010010100000011101000110010001111100010111111110000000111100101010001110110010111000010101000110000000000011111100000010111111000010101011110011111111100011110010000001000000000011101111110110101101100000000001000100000010000000100101000101010000111011111110000010000000010000100000001101110011010000100001000110010000110000001100000000011111001111110000111000101100011011010011111100101111110100000001000010011100010111100000111001111111011100001100000110110001000000000000111100010000100000011110001100010010101100100100000101010000101100000000000000000000001011101011110111001100101110111111110101000000000100000010111111001110111011011011110110101110110011110000111111111111101011110101111001011110110100001110000100000001110100011000000101001111101011101000111011110000000011111001110100011101001110111001101100011110101100000001000000111111111000000110111111101110000111110011111010001101110011001101110011001100100011100110110111101111110100001000000001011111111011101101111011111110010111100111111010001011101110110110110011101101100111101111111111001111110100000000000000011110001011011111110001101101110111001101101011101101001111001101111011011110011011101011000000000000101100000101000000111111100011101110111100001110100111010011110010101101000011010111111011000000000000000001111111011111011111011111101110101100000110010110101111001101101111101101111001011110110111110111111011101111011000000010111110000000010011111010111101001111111111111001111010111110111111100001110110101111000111111101000000110000000000000000111000001101010011001001110110001110101011101011111100011111010111110100111010111111100111110010111100001111001100000100000000000001000000000001000110101111001100000001111001111111000011111100000000011111111000000000111110001110011011011100110100100000001011111101111011011111110011110110000000101111001111110110111110001111101100001101000010010001011100010111000101000001010111110000111110111110001000010100000001001111111000000100000001000000001011110101110110001110100111110110111110101111010011111111111111100000000011110001111100111111100011110001000001011111100000000000000001000000100100000001000010100000000111100110111010110000000000000010000000010000000111111110000000011110101011001011110110111101000111000001110100011111000011011000110010001101110011100100110110011101000111000100110011101100010011010100110000001110101111101100111000100000001011111100000000100000001011111100000001000000000111100011111000011100110110110011101100011001011110100100100011001010010101111000011100101001101010000011011111111000100010101001100100111100000111010011111011010000000100000011111111100000001100000000000000101111111100000010111111001111101011111001111010111110010011011100110101011110010011010011110110011100010111011111110101101110001011011000111000011110110011101010111011001111111011111101000001000000000100000011
00000010111111100000000100000011111111011111110111111101111111100000001011111101000001001111110100000100111111110000010011111101111111001111111000000100000000011111111100000001111111000000001100000100111111110000000011111101111111001111111011111111111111010000001011111110111110011111100011111010111111101110011011101111111011111101101011101001110111111101001011011100111000111110011011100110000000011111100100000010000001001111111111111100000000001111110000000000000000011111110111111101111111011111111111110100110111101101111111010000110111011011101010101001101000111100100111110001111111000000001111111101110101011110101111100011111000101110001011110001000000111111111100000000000000101111100100000000000000001110111011101001110100011110111111110001111101001100110011101100111110011111101011111111111110100000010000000100000010110001011100011110000100001111011011110001000110001111110000000010000000111111111011110110000000001110101111010101110110001110100011101001111011001111001100000110111110101110101000000111000010000000101100010011000011111111111011110110001000010000101100100011001100010001101000001110111111000000001000000011111111101110001011000100110010101101111011100011111100001111110100000101000010111111100011111100111111001111111100000001000100100000111100000101000110000000111100001100000110000001011000111000000101010000000011111111000000000000000011010000110110001110100111100111111111101111101000000000000000010000100100010011000000100000011000000010000001010000011100001110000110010001000100010101000100100001000101010011001110010011000100001010111111101110100011101010101110001011011011011111111011100000000000010010000011100000110000010111000010110000001100000100111110110000010100001010000100000001010000011100000100110001101000101010010000110101000000011101111111001111110011110100111000001100000010100000111000011110111111111010000001110000111000001010000100000000100000000110111111101111000011111010000000110000010000010000000111110001011100011100001111010101101001010101001110010000100100000010111011001111100110110110101111011101010111110100111110000001100000010001000011100010001100011000000010001111011111100101111001101110010111111100111110000000011100011110001011010100100110001101011111110010111100000101111111101111010111100101110010111101110011100011111101100000110000001111000111110001100100100010000111100001100100000001111010111110000011011000110110001101000011100100111111110000000000111001011100101000111101010011000001011111110111100010111001011011101000000001111111110001110000000111000100000001000000010011000101000010011000100101000000001110010111100010111000011110010011000110100101101001000001111100101110100000010000111110001010101111001100000010111100001110011011101011000001011111111100011010000001110000011100000100000111000010000000100010000110101111100111101011110110011101010111011101110101001100111110101011011100110101111101100101110011001111011011110000111111101111101111100011111011010000100000001110000010100000110100000000000010010001001100100010001010010001000011111001111000011101100111100000111100010000000011111100111011101110000010101001100001011011100111011100111011001111111011111011111011111110001011111101111000111110111111111110111111110001010100100100000100010000101000000111111111011110011011100111111000001110101111110100000000001111001100001100111101011110100011010110111000100000000000000000111101111110010111100010110000101100101011011100111000001111101000001010000011000000110000000100111110011110010111100011111001011110100000000011111110111111101011111011111101100000001111111101110111011101101011111110111111111111110011100000111100101110100011010100110010101011110011010010111000101111000011110110111111111110111011100000111000101110100111110110111110000000100011111010000000010001010000000101000010001110011111000101111010010000000011110010110011111111011111110010000000100000001011010111110011111100100011011001111000011100100111010010110101101111101100000000000100000001011100000001000011010000100100000000000000110000111111001101110011011111111011111101111100101101100000001110000101000001010000100010000000011110101111010100110100101101011011011010111011011111111011111111000001000000101111111110000010100000011000001010000100110000010100001110111000011101101111011111111111101111000100001101000000110010101100100010001000110001100100010100000010011111101111111101000010110001010000000101000011110000011111111111000011010000100000001010000001000000110100000111000001111111110011011001111100010000000011110001000001100000111100000100000111000001000100001000000110110001100000010011000101010000111000000111000000111111111100000111000010110000110000001000111111110000101100101010000101110000011111111010111011010000000000000010111101001110010100000000000011000000100000001010000001010001100000011010000011110000111000011001000100000000101100010101000001110000110000000101000001100000110000010000001000010001010011111110111101110000101100000100111111010000001111011011111011010000111111101111111011111111100100001011000001110000101100010101000110110001100000011011000011110001100000001010000100111111111100001100000010000000110100001011111111111111100011110100000000100000010011111111111010111111111100001111000011111111011111111110000000010001000100011101000101010001001100010011000101100000111100010101000001010000000011111110000010011111100000000011000011110000111000001000111101101111111100000010000000011111100000000110111100101111000111111010000000110000110000011110000010010001100100011101000111010001110100100101000001100001110100000110000000000000010011111011000110100010001000001110111011101111110100000000111111110000000011111101000100010001010011110101000000001111000111110101000100100000111100001011001000010001100100000100001000000010000000101001000111010001010000000111001000000011000000100111000111100000001100000001000000000000000111111110000000110000000111101011111000001101110011010100110001001111100111101111000001000001001100000101111100110001010000000011111011111101100111011101000000000000101100001110000000000000000111111110000000110000000000000000000000000000000000000011111111101111101111111110111110101101111111110010111000110000111000000110110101001100011111010010110100111101001111100010111011111110111111110000000000100000001011111101000000010000001100000000
00000000000000001111111000000010000000110000001100000000111111010000000000000000111111110000000000000000000011111111100011111110111111111111110111111110000000001111110000000000000000001111110111111100000000001111111000000010111111110000001000000100111111100000001000000000000100100010001000011011001010010010010100100000001101000011100000000001000110011111100100100010001101100001111000011001000111110001100000010001000000111111111111111110000001000000001000000000111111101111111000010100000001000010000100110011001110010010010001000101001100100011100000011101001100100010011000011101001000010010011100100110001100100010100000110111001010110000010111110100000000010000000100000000111111010000110011111111111111111111111100101010001000010001101000101011000111110001110100010110000101010000010100011110000001100001001000010110000110110001010100011110001010100010010100100010110111101111111000000000111111001111111111101101000000110000011011111000000001000000101000001010111111110000000111110001111100111111101011110110111110111111101100010010000001100001001100001111000101000010001100011000111100111111001111011111000000101111110100000000000000001110010000000001111000010000011111110000000001001111111100000110111001001110101011110111000001011111101011111011000001010001010000011000000101010001101000010101000110100000101011110010000010000000000000000000000000011111111011011001111011011111000011101101000000001111100011110011111000001110110111101011111010011110111011111000111101011111110011110111111110000000001100000001000000100001001011110010110100101101011111101010000000000000000011110010110101101111010111111101111000110000001111101100111101101111011011110111111111011110111011111010111110001110001111110001111101101101111011101000111011101110111011010110111100001101001111011110111101110000001111111110111010111110001011101111111101011110000011110111111100101111011011101001111100101111011111110001111010011110010111011111111000011011110111001111110100001110100011001010101111101100001110101101110010011110111011111100111111101111110111000110111110111110001111101100000000011111101011101111111011101110100111101011111010101111000111100001110011101100000010110100110010001101011011101001110111001101011010110101100110111100101111110101111111000000000111100111110101111110111111100111111000010000000011111101111110101111010111111111111100000000100011101000110100011100101011000110110101001101010011100101111010011110011011101001110100011001110011000101111001101111110111111100111110001101100111111111111111011111000000000001111111110000011100000010000001010000101100000011111001011100010011101100110110001110000111110000111101101111111111110001000100011111001111000001101111100001000100000001111110101111001011100000111010111111101000000110000101110000110100001100000001000001010000010001000001011101101111011011111011011111011111110011111010011110111100001011001001010011111000100001110100011011011000010000000000001111111011111100111000011110001100010011001000010000011000001001000101010001011100010011000011010000000011111001000000011111111011110001111011101111111011111100000101000010000001000001001011001110010110111001111001111111110011111101111111001101001111000110000101000000110000001100000011010001011100011101001100000001011111111110000000000001000000010100111011001111001111111101000001000000110000100001001000000001001011110100110101101111111000000011111111111111111111010001101001110000000000000100000100110001010000010111000111000010100100011000000010100001010100000100000000001111011011110010000000010000101100001101000000110000110100001011000010111101001111111000000000010000000111111110110001101100001111111010000011110001011100011000000111100010100000110111000011000000001000010010000010111111011111111001000000100000100000000101000011011111101100000001000001101110101010110111111000101111111011111101111100111100101010110001111011010000000000010000000101000001100100101111001100000000110100001000000011011111110111110011000000010000101100000110000000111111011100001000000000011111101011110101110001101111111111111111111111111111100111100101101100001100100111100111000011000000100100011001001000000001110100110001000100000000010100001000000011100001010100011000111111111111111100000000111110011111111111110110000001001111000011100010000000011111111011111000110011011101011111001100111010101111110111110100000100010010010100110010001110100001101000011100000111100001110000001111000011010000010100000001000010000000011111111100111100001101011111011100111100000000000111110000111110011101010011001100110011101101011111111001111101110000111100011100001001000010111100100111001011110010000100011000000001110001001000010000000010101111011111101010111101111101100111101110111111100000000100000100000000001111100111011011101011111011011111001011111100001111110011111111000111100010000000110110001110000011010100100001000111000001101100010010000000000000010011101101111111111110101011101011110101110000100011111111111111111111110100000000111010001101011110110001100010011101011011111000111110110000111100000111000111100001001100010010000101000000100000000010000001011111101011111010111100111110000111001100110001101101111011110100111111010000010000000010000000001111110011101100110111111011011110001011110010111101101011010110110111111110010111110100111111000000011111100101111011001111101011111001111110111110110111000101110011101100111111110000111110011111110011111101000000111111110000000001111011111110111011100000110011001010110110100110100000101010010110110011101100011101000111011101111000001110001110111100110110101010110110111011110010011110000111110111111111000000000011111110000000100000001000000000000000000000000011111011111100101111000011010100110011101101100111001011111011101010011110101111101100111011011010110011110000111101000111100110111010101110101011111000111101100000001100000011000000011111111100000010000000001111111000000011111111111111101111111001111110011111010111110001111101011110110111100111111100101110111011101111111100101111001011111001111101011111010011111100000000011111110100000010000000000000001000000010111111000000000011111111111111000000001111111100111111110000000111111010000000001111110100000000111111101111100011111010111111101111110111111001111111011111100111111000111111101111110100000000000000111111111000000000
11111110111111110000000100000100111111001111110000000000000000000000001011111110000000110000000000000100000000101111111011111101000000100000000000000000000000010000010011111101111111010000000000000100000000000000000000000000000000001111110100000000111111100000000000000001111111011111100111101011111011111111000111101010111000111110101011111011111101111110111000000000111110111111101111111100000000001110111111110001000000000000000000000000000000110000000100000010111111011111111100000000000000111111110111100110111001001101110111010101110111101101101011011110111001111110101011110010111011001111101111111110000000011111111011110101111100100000000000000000111111110000000000000010111111111111110111111110000000001111011011100011111000011101011010111111101111001100110110111110101110011100100111001010110101111100010111011100110111101101111011101100111011111111111000000000000000011111111000000011111111110000000111111110111111111111001111101010110100001100001110110000101010111001011110101110101100011010110010000110100001001000011110001110011111111010010010111101111011101100110011100010111010111111010100000000000000110000000000000001000001000001000011101111000100100000101100001011000011111111111111110011111010101110001011011010110101111101000011011011110000001101010010110011101000101010111111000010101100101101000111011101111001110000001111111101000000100000111100011000000101110000110000011100000010100001110000001011000110010001100100001000111111011111010000000010000000000000001011101001111100111111010000000000111101001101010110101110110010111101111011111101111111101110111000011000001100010000001000001111000110110010011100001110000111000010010000100001000100100000110100000100000011000001001100011010000110100000110000001001000001101111010011101011110111011100011111100101111100100000000000011101000011000010101000011011000111000001110100100110000110100000111000010100000111010010100100010010000101000010000000100011001011000010001100001101000100101111111100010010000000001101010111010101110010101110110000001110000111010001110100101010000111010001011000010100000010110000011000000101000001010001000000011101000011110010110000100100001010100011000100010100000101100001001100001011111111111101101011100011111001011101111011111111000100000001111100100100001011110001101000010010000000100000001111111001000000100000001000000101000001010001101000101100001011110011110000101101001001100010011100011011000111000000111111100011110000001100101111011111111110100000100000101001001110000010110100101001000010010000011000001100111101100000011000000111000001000000000111111110000101000010100000110011001011000010101000001101000100010001000100010100111000111010101011000001111000100000000100000000000111010011101001001010001010010000111111111111000101010001010000000110111101011111001111001000101010101101111100010110001100100010010000011110111111010000011100000000000000001101110110110011110011001111001000000010111111000001001001000001001001010010000000000101111111000000100111111100111101001111001011001000100110011010001011010100000001010001101100011000000100000000010000001001111111001111011111101111111010111110000011100100111110001111110100001111001000000001011000001101000010011111101111110110111100011110100011100101101110111001001011000000111101011111001100001101000111100010110000101110001011000000100100010001000100101110011111110010000000000000000000000010000001000001111100010001111110111111001111111110111010111101110011011101110101011100000110111011110110001110011000000011111111010010100000110101000111110010100100101101001000010000111100000010110011101110101000000001000001001111110111011111000000000000111111100111000000011111111011101010111001111101001010111111110111111111001111101110000100000000111000011111000110010010100100011100000110001111111111110000110111111101100111010110000001001111111000000000111000001110100100000011111110110000000011100111111000001110100111001011111001111111001100000111000100100000110000000111000010000000110000000010000100101111100111100010111011011111011011011111110110001111111111111110000000111110111111101110111101101111010011001110110011101101001111100100110100101110000011101010000001110000110000000100111100011111101011110111111011111110101111101011110110111011001010110010110010011111101011111101000000000000000011110000111001000000100111011010101110101011101011011001110111011101110011100000000000101111101100010111111110101110111011101001110111111110100011011101110001101100100111000000111011011110111111110010000000101111111011110111111011011100011111000110101101101010101010111001110101111101100111100010111100000000100000000110000011011111011011100010110111111100010011011001110000101011011010111001110000101111101111011100111001110000010000000000111100111101111111000011110101001011110111011000110011101111001111110000111111011111101100000111111110110000000011111100111111001110111111011001110101111101001110111111101100001011001111001110111001100000000000000010000000011111110011011011110100111101111100010001111110110000110100000000111111111111101111101111111111111111100100000000111111101111100011110010110110011110011111001100110001101011100110111110111001001110011111111001000000101111111000000000111000011101000000000110000110100010000100100110111010011111111000000100111110001111000111110111000000000000110011111011111101001110100111010010110010011100011010111100110000001110000111100111000000100000001100000010000000111110111100001111000010010011111100100100001010010001110100000000000011010000011000000101000101000000010000000101111111011111111111100100111001011110011111101000110010101011010111011101111001100000000100000001000001000000001111111110000001100010001000010100000010000001111000100101001001010001011000100110001001000001010000011001000111010001001000010000000110100000001011101001000000110000000011001111111100101111111011111110111111010000010011111110111111110000001011100011111011111110110000000110000100100001101100010110000110100000010000101011001001100011000100100111001101100010011000011110000001001111111000011000111111011111110100000001111111010000001100000000000000010000000100000100000000000001101000010100000101000001110000001010001000110000001000010111010001010010011100011100001001010100101100110111000101000000010111111011000010100000001111111101111111110000000100000010
11111100111111100000000000000000000000000000000000000011000001000000001000000010000001000000001100000000111111100000001011111101111111100000010011111110000000101111111111111110000000101111110000000010000000000000000000000010111111000000000111111101111111010000001100000001000000010000001011110101111101111111110011110010111011111111001111110100111100111110011011101001111001111111010111110010111011101110110011111001000001000000010011111110000000110000000000000001111111100000010011110100000000111110111011110000111011001110010111001111101111011010111010100100100101111001101010011100100110111110111010101011110010011100110011011100111001011110101111101111111111100000001000000000000000001111100011111100000000001110011011011101110110001101000110011111110001011100101111010011110100011110000111011110111000111110000111101110110001011110000011110011000000000000101011111010111001111111110011111110000000100000001111101110000000111111000111010110111010101110011111101100000000010000010011111101000100000000101100010010000100110001000111111110000000010000001100000010111111111110101111100100111111000000011000001110000000000000000011111101000000001111001111011100111001001100011111111100111111111111101111111001000010110001000100010100000100110001001000010001000100001111111100001101000010000000000111110001111011001111101000010001111110110000000100000000000000111111011111100000101110011110110111110001111101110000101111111010111111010000011100001110000011100000101100011011000010110001010100000000000101000000111000000000111111110000100011111111000111111111000000000000000000101110101111100100110000000000011011110000111011011111110000001111111111010000001100000000000000010000000011110100000100000000100111111111000100000000110100001001000010000000000000010100000011100000000111111010000011000000001011101101110111101111101111111001111111010001000100001111000001110001010000000110000000010001001000001101111111011111110100001001111111100001001000000110000001100001001000010010000100100001101000001101000111110001010011111100111011011101111011101100111010000000111100010011000010100000111100010111000010010000111000000110000000011111011011100010111100111111111000000100000100010001000100010000000100110001011100000000000010100001001111101100111111111111000011100110110111100001011100000000000011110001011000010000000111010001010000010011000011110000100011111011110111101110011011101100000000110000111100001001000011010000100000001101111001101100011011110011000110011111100111101011111000101110100000001001000010010001000100010100000100100001011000001111000011010001000000011000000110011111101111110101111100011111100011111111000000110000010000011011000110100001101111111111000110001111111011111000111011101101111000000000000010100001011100000011000011100000011100001011111110010000011000010000001001010001000100000101111111100000001111111111000011110001101100011101000110100010011100110001000010110000000100000000000000001111111011100100111111111101110111111101111110001111110011111000111111111111010000000000000110100010000100001011000110110000100111110011111111100000100000001101111110010000000000010010000011010000000111110100111011101111111011111110111101101100110011100100111100101111000011011011111001011110101111111100000011010001111100100110000101100001010100000100111111101111010011111000110110011110011111011001110101001101101111111010110110100000000000000000111101001111001011000111110110101101000011001001110111001110011111111001111110010000001000011011001011100010000100001101000000011111100111110110111011001110101111011101111000011101111111010010000000001101110011111011000000001111110111100100111111011101000110111111111101011111001011111011111111110000001000001011001000100001010100001010000001110000000011110011111001001101100111011011110101011101110011110100110111101101000111000111111011000000001011110111111001001100011111011100111010011110100000000110000000110001011100001011000101110010001000001111000000001111001000000111111110001110100111110010111001011110110011101010111011010000001010011111110011100000001011111111111111011110111110110100110011111110111011101110111101110000100100001111000101000001010000001101000011011111011100000000111101011111010111111000111110111111110111101011111110111111111011101111100100111101110111101000000000001111111011011001101111111101010100001000111110101111100100000000000010100001000011111011111111101111001111110011111100111111010111111011000000110000000111111000111111010000100100011110111100111010101011010100111101110000001111110001110110011011111111100101111111000000001000010001000000010000001000001011111100111111111100000001111100100000010111110110111110101111110111111101000010100001010000001100000010101100110011000001110101000000000000000100111110111110010110011110110110011111101000001100000011010000100100001001111111100000100000000011000011000000100100000101111111000000000011111111000001000000010000000101000011011111001011011001110110111110001100000011000000000000001111101011110011011101100111101101111110000001001111111011111110100000101100001111000101010001101100010011000101000000101011111111000010000000000011111110000010011111100111111101111011101110100111101011111111010000001000000000111110011101010111100111110110011101100111101110000001110000110000001000000011100001111100101000000111000001010100100010000011110000100000010010000001110000011011111110000011101101110111010010111011110000000000000011000000001111111011100101101110101100100111010011111001000000000100001000000001100001010100011011000011110001110000011101001000101111101100100011001000100000101011111001111000101110110011001000111000010000001000000000000000000000001100000001111010111101000010100011110011111101110011010101110111001111110111110011111001101111100000000101000011010001011000001100000010010000000000000011101000101011110111101100111001100000000100000011111111010000001100000010111111001111110011011100110110101100111011101101110101101101011011001000110010001101000011001000101110100110110001110100110010011100101010010100110010001101001011101001000000000000000000000000111111000000010000000000000000101111110111111100000000011111010111111010111011101110111011101001111010011110010011100000111000011101100011011110111011001110100111010100111010111110110011110001000000010000000100000001111111000000000011111111
11111111111111110000000000000000000000000000001000000000111111101111111011111110000000001111110000000000111110010000000011111111111111011111111000000000000001001111110111111110000000000000000100000010000000011111111100000011000000101111111100000011000000000000000000000001111110101111010111101110111100001111010111011111110100001110110011110000111100001110110011100101111010101110100111101000111001001110001111110011000000000000001100000100000000110000001100000011000000101111110000000011000000111111000011101000111011101110110011010010110110011100011111001001110001101100011111001100110100111101100011011101111100111111000111100101111100011111101111111101000000001111110011111110111111001111111000000011000000101111111011110000111001101101111111100011101111111011000010100101100100001001001010001101100100011010000011101100110000011100001011010011111100011111000011111110000000000000001100000001111111001111111111111110000000000000001011110100111001111101011010111100101101111001000110110010101010011011100010110010101001001001001010011011101100100111100010011001100010111010010111000110110111111111001100000000000000000000000100000011111111011111101111110001110110011011011001111011110010111011100011001110000001001111110100000011111011111110011111010010110100111100101011011011110100001101001110110010100000011011011111011001111100111111110100000000000000001111100011101010110011101010110010010000111001001110110111110011000000000000110000010000000111010010100000011101000111010001101100010111000000011111110111100111110110001010100110101110111001101101110111101000000000111110101111100111110100101010101010110000111000111101011111101000000001000000001000001010001000010010010000110111001101110011001000100001000101000000011100001001111110101110011011010111101101111010011011000111111100001111110011100111110011101010101010111101110100011110000111011000000010011110110111110011111111011111011100010010001001000001010100010010000011000000001111111100111100110000010011101011110100111101001110110111110001001110110111110100111000111100011011011000110011111110101000001111111111001111101100000010000001111111111100000111000010110000101100010100000001100000001100000111000000001111111011110101111010101101100111001101101111111100010111101110111010111110000111000001110010011101110011111110000110110000100100010111000010110001011100010010000010111111010111110111111100111111111100000001000001110000000100000101111110111111101111101100110001011100011011001001111001011111011011010110101100101110101011101000000010110001011000001111000111010001101100011100001000101111111111110011111100110000100000010001001000110001100000011000001001110010010100000111110101111100100011000001110100110000000000000000111000011100010011010101000100000010000100100000000100100001010100011001000100000000110111101001000001000001011100011010001000100010010100100101001010010010110000100101000101100001000011000111101100111101010100000100111111101111000010111001000000010010100000100111000101000001111100010111000100110000101000000000111100000000010000011010001001110011100100101001001001000010010100101000001000010000101011100011100111011011101011011101111111101111111111110000111000000000011100011011000001010001000100001110000010110000011100000011000000001111100000001000000001010001011100100111001001010001110000001100000100010000110111110111110100010111110011001001111001010000001000000001111111111101111100000001000000110000000000000110000001000000010000000001111110100000010111111011111110101111010100010101001010010001100000010000000000010000100011110000111000111011111101110111110000101110010111110011111111001111110111100001111110000000000000000101000000010000000000001001111110100000100000001000000000001110110011110101000001010010001100010001000010001111010111110110110101101110100110111101100000111100000011011010111111111111111111111111110100101110001111011110111001011110101100000000000011010000000100001001000010111111111111111010000000100001011000001101000001001111110111110010111100101111011011011111101110101001010111001001111000000000010000000010000001001110100111011000110111001101000011101001111101111111011011111100000010110000000011100011111100010000010000001111000000011111100111111110111101001111001111100011110000001011011110001111111010011111010011111100000000000000001011011000110111001101010011010010111000011111101011101000110111101101110111100000110111001111001011111011111101011111011111110011111000111111111111111000110110001101000111100111101110101110001111100101111111011111111011110000111000001101111111011100110110111101000111010011111001001101001110111111110010111101101111110010111101011111010011111010111011111110110111101100111011011100111011101010110110011111100100010000111010001111111100000011111110101110000111001011111101001101100011101011111001011110001011110011111011111110001111101001111010101111100011110001111100111110100011100111111010011111001011110110111001111110111000001111000000111111000100000000111111110000000111011101111101001111101011010100111000011110010000000001000000010000101000000011111111001111100111111100111100111111100111110011111001111101110111110100111100010000011100001111000011010000000011101101111111000000001011111101111001000000010011011101111110011110100111111001000100001110111000000001111110011111101111111100111110111110010011100100111101111111001111110100111101110001001000101000000100010000011111100001111111000000000000000011111111111111000111011101111111110000111000001101000101010000111111111010000010011111101011110100111011011110110100000010111111110000011100000101000010010010001100011010001001000010010111111001111011110000000000000011000000000000001100000010111000001111110000100110000100100001111000010000000110110001010000001100000001100000111100010000000010100001011100010001001000100010100000111110001100010000101100001100111100011111111111111111000000000000001100000000000000001111111100100101001010100011000000101110001011100010000100101000001001110010100100101110001110110001011000011111000101110010101000011010001000010010000000000101000011100000000000000011000000001111111000000001000000000000000111111111111111011110101011011001000010000000000000000111000010000000100111111010101100101111111111111001111001001011001011101100111110011111110100000001000001111111110100000000111111110000000000000011
